/* Copyright 2019 The TensorFlow Authors. All Rights Reserved.

Licensed under the Apache License, Version 2.0 (the "License");
you may not use this file except in compliance with the License.
You may obtain a copy of the License at

    http://www.apache.org/licenses/LICENSE-2.0

Unless required by applicable law or agreed to in writing, software
distributed under the License is distributed on an "AS IS" BASIS,
WITHOUT WARRANTIES OR CONDITIONS OF ANY KIND, either express or implied.
See the License for the specific language governing permissions and
limitations under the License.
==============================================================================*/

// Automatically created from a TensorFlow Lite flatbuffer using the command:
// xxd -i sine_model.tflite > sine_model_data.cc
// See the README for a full description of the creation process.

#include "sine_model_data.h"

// We need to keep the data array aligned on some architectures.
#ifdef __has_attribute
#define HAVE_ATTRIBUTE(x) __has_attribute(x)
#else
#define HAVE_ATTRIBUTE(x) 0
#endif
#if HAVE_ATTRIBUTE(aligned) || (defined(__GNUC__) && !defined(__clang__))
#define DATA_ALIGN_ATTRIBUTE __attribute__((aligned(4)))
#else
#define DATA_ALIGN_ATTRIBUTE
#endif

const unsigned char g_sine_model_data[] DATA_ALIGN_ATTRIBUTE = {
    0x18, 0x00, 0x00, 0x00, 0x54, 0x46, 0x4c, 0x33, 0x00, 0x00, 0x0e, 0x00,
  0x18, 0x00, 0x04, 0x00, 0x08, 0x00, 0x0c, 0x00, 0x10, 0x00, 0x14, 0x00,
  0x0e, 0x00, 0x00, 0x00, 0x03, 0x00, 0x00, 0x00, 0x48, 0x0b, 0x00, 0x00,
  0xf0, 0x05, 0x00, 0x00, 0xd8, 0x05, 0x00, 0x00, 0x04, 0x00, 0x00, 0x00,
  0x0e, 0x00, 0x00, 0x00, 0xc8, 0x05, 0x00, 0x00, 0xb4, 0x05, 0x00, 0x00,
  0x5c, 0x05, 0x00, 0x00, 0x0c, 0x05, 0x00, 0x00, 0xfc, 0x00, 0x00, 0x00,
  0xac, 0x00, 0x00, 0x00, 0x98, 0x00, 0x00, 0x00, 0x48, 0x00, 0x00, 0x00,
  0x2c, 0x00, 0x00, 0x00, 0x24, 0x00, 0x00, 0x00, 0x1c, 0x00, 0x00, 0x00,
  0x14, 0x00, 0x00, 0x00, 0x0c, 0x00, 0x00, 0x00, 0x04, 0x00, 0x00, 0x00,
  0x28, 0xf5, 0xff, 0xff, 0x2c, 0xf5, 0xff, 0xff, 0x30, 0xf5, 0xff, 0xff,
  0x34, 0xf5, 0xff, 0xff, 0x38, 0xf5, 0xff, 0xff, 0x9a, 0xfa, 0xff, 0xff,
  0x04, 0x00, 0x00, 0x00, 0x0c, 0x00, 0x00, 0x00, 0xaa, 0x94, 0x8a, 0xbf,
  0x61, 0xe3, 0x03, 0x3f, 0x3e, 0xe6, 0xc0, 0x3e, 0xb2, 0xfa, 0xff, 0xff,
  0x04, 0x00, 0x00, 0x00, 0x40, 0x00, 0x00, 0x00, 0x36, 0xc8, 0x5c, 0xbe,
  0xae, 0xcb, 0x83, 0x3e, 0xb6, 0x04, 0x82, 0x3b, 0xc8, 0xa9, 0xc2, 0xbe,
  0x8e, 0x0a, 0xce, 0xbb, 0xae, 0x2a, 0x04, 0xba, 0x39, 0x96, 0x18, 0x3f,
  0xb1, 0x39, 0xbf, 0x3e, 0x47, 0xf6, 0x49, 0xbb, 0x1e, 0x65, 0xc7, 0xba,
  0x72, 0xe7, 0xbe, 0x3a, 0x0c, 0x74, 0x9d, 0x3d, 0xa1, 0xe0, 0xd3, 0xbb,
  0xd6, 0x9e, 0xba, 0x3e, 0x62, 0x12, 0x0b, 0xbf, 0xf5, 0x18, 0xe6, 0xbe,
  0xfe, 0xfa, 0xff, 0xff, 0x04, 0x00, 0x00, 0x00, 0x04, 0x00, 0x00, 0x00,
  0x71, 0x65, 0x3f, 0xbf, 0x0e, 0xfb, 0xff, 0xff, 0x04, 0x00, 0x00, 0x00,
  0x40, 0x00, 0x00, 0x00, 0x00, 0x00, 0x00, 0x00, 0x72, 0xa4, 0xc3, 0xbf,
  0x3c, 0x66, 0x5f, 0xbe, 0x00, 0x00, 0x00, 0x00, 0x90, 0x97, 0x5e, 0xb9,
  0x00, 0xa4, 0x20, 0xb6, 0xfb, 0xfd, 0x42, 0xbf, 0x5e, 0xa1, 0x45, 0xbf,
  0xc4, 0x65, 0x00, 0xb9, 0xb8, 0xec, 0x1e, 0xbd, 0x30, 0x91, 0xa8, 0xbd,
  0x32, 0x54, 0x38, 0x3b, 0x5e, 0x74, 0xb1, 0xb8, 0x27, 0x2c, 0x0d, 0x3e,
  0x00, 0x00, 0x00, 0x00, 0x00, 0x00, 0x00, 0x00, 0x5a, 0xfb, 0xff, 0xff,
  0x04, 0x00, 0x00, 0x00, 0x00, 0x04, 0x00, 0x00, 0x88, 0x40, 0x2e, 0x3d,
  0xd4, 0x29, 0x92, 0xbe, 0x30, 0x61, 0xd6, 0xbc, 0xc4, 0xef, 0xa9, 0x3d,
  0x87, 0x94, 0x85, 0x3e, 0x5f, 0x79, 0x84, 0x3e, 0xfd, 0x67, 0x05, 0xbf,
  0x5a, 0xd8, 0x49, 0x3e, 0x92, 0x0c, 0x01, 0xbf, 0x5b, 0xb0, 0x3b, 0x3e,
  0xd3, 0x56, 0x0e, 0xbf, 0x1b, 0xf7, 0x3a, 0x3f, 0x0d, 0x37, 0x2b, 0x3e,
  0x0f, 0xe3, 0x55, 0x3e, 0x0a, 0xdc, 0x38, 0xbe, 0x3d, 0x9a, 0x85, 0xbe,
  0x94, 0x62, 0xe4, 0x3d, 0x83, 0x72, 0xaa, 0x3e, 0x99, 0x86, 0xd9, 0xbe,
  0x38, 0x28, 0x07, 0xbd, 0x0e, 0x17, 0x89, 0xbe, 0xf4, 0x2c, 0xab, 0x3d,
  0xda, 0xa1, 0x8c, 0x3e, 0x53, 0x70, 0xfa, 0xbd, 0x50, 0x60, 0x51, 0xbe,
  0x74, 0x41, 0xe2, 0xbd, 0xfc, 0xab, 0xc3, 0xbd, 0xa0, 0x06, 0xda, 0xbe,
  0x2e, 0xb1, 0x1d, 0xbe, 0xa2, 0x5b, 0xc4, 0xbe, 0x20, 0x0b, 0x74, 0xbe,
  0xb2, 0x92, 0x66, 0xbe, 0x37, 0x4c, 0xcb, 0x3e, 0x59, 0xa1, 0x01, 0x3f,
  0xb1, 0x93, 0x6a, 0x3e, 0x07, 0x59, 0xbb, 0xbe, 0x95, 0x84, 0xf2, 0xbd,
  0x4c, 0x65, 0x94, 0x3d, 0xe0, 0x20, 0x20, 0xbf, 0xac, 0xa0, 0x30, 0x3f,
  0x4e, 0xbb, 0xae, 0x3d, 0xc8, 0x9b, 0x54, 0x3e, 0x62, 0xd5, 0xfe, 0xbd,
  0x98, 0xa1, 0x45, 0x3e, 0x8f, 0x3a, 0xb5, 0xbe, 0x28, 0x15, 0x05, 0x3f,
  0x65, 0x9d, 0x95, 0xbe, 0xb6, 0x58, 0x47, 0xbe, 0x77, 0x7a, 0xb6, 0xbe,
  0x76, 0xc0, 0xa7, 0xbe, 0xad, 0xc6, 0x9f, 0x3e, 0x5e, 0x2b, 0x8c, 0xbe,
  0xef, 0x34, 0xa8, 0xbe, 0x0f, 0x1c, 0xda, 0xbd, 0x2e, 0xac, 0xef, 0x3e,
  0x03, 0x11, 0x21, 0xbf, 0x46, 0xc1, 0x71, 0x3e, 0xe2, 0x0e, 0x72, 0xbd,
  0x9d, 0x4f, 0x35, 0xbe, 0x33, 0x12, 0x15, 0x3d, 0x5a, 0xba, 0x63, 0x3e,
  0xdf, 0xc9, 0x3c, 0x3f, 0xd0, 0xf4, 0x9e, 0xbc, 0x21, 0x7b, 0x97, 0xbe,
  0x67, 0xf6, 0xd2, 0x3e, 0x3f, 0x89, 0xaf, 0xbf, 0x91, 0x9e, 0x8c, 0x3d,
  0x32, 0xe2, 0x1f, 0x3e, 0x6c, 0x85, 0x91, 0x3d, 0x9c, 0xe5, 0x01, 0xbd,
  0xe6, 0x8f, 0x1f, 0x3e, 0x90, 0x81, 0x2b, 0xbe, 0xd1, 0xc3, 0x7c, 0x3e,
  0x0c, 0x08, 0x2c, 0x3f, 0x3a, 0x3a, 0xb3, 0x3e, 0x30, 0x22, 0x21, 0x3f,
  0x45, 0x49, 0xff, 0x3c, 0xe9, 0x70, 0x37, 0x3e, 0x8d, 0x7c, 0x80, 0xbe,
  0xda, 0xaa, 0x7a, 0x3e, 0x40, 0x2e, 0x09, 0x3c, 0xf7, 0xda, 0x65, 0x3f,
  0xa9, 0xc5, 0xd4, 0x3e, 0xa6, 0x6f, 0x1b, 0x3e, 0x29, 0xf8, 0xb8, 0x3d,
  0xc7, 0x5a, 0xc1, 0xbe, 0xc9, 0x79, 0xbd, 0xbe, 0x26, 0x6e, 0x44, 0x3a,
  0xda, 0x5e, 0x97, 0xbe, 0x4f, 0x2a, 0xab, 0xbe, 0xa9, 0xff, 0xa3, 0x3e,
  0x62, 0x6d, 0x32, 0x3e, 0x96, 0x2e, 0x31, 0x3e, 0xbf, 0x0e, 0xb4, 0x3e,
  0x22, 0x46, 0x6a, 0x3e, 0xf2, 0x55, 0x2e, 0xbe, 0xba, 0x36, 0xc3, 0xbe,
  0xab, 0x22, 0xdc, 0x3d, 0x10, 0x39, 0x2f, 0xbe, 0xec, 0xcf, 0xa6, 0xbd,
  0x51, 0xd2, 0x74, 0x3e, 0x74, 0xc7, 0xce, 0xbe, 0x2d, 0x39, 0xb6, 0xbe,
  0x0b, 0xb7, 0x9e, 0xbd, 0xe5, 0xb8, 0x01, 0xbd, 0xc7, 0x5e, 0xfb, 0xbe,
  0x12, 0x60, 0x50, 0x3e, 0xf7, 0xf4, 0xaa, 0x3e, 0x5e, 0x8c, 0xcd, 0x3c,
  0x55, 0xbc, 0xd3, 0xbc, 0xf6, 0x55, 0x50, 0x3e, 0xbc, 0x8e, 0xbb, 0xbe,
  0xe4, 0xf8, 0xd7, 0x3d, 0xe5, 0xf3, 0x12, 0x3f, 0x62, 0xef, 0x0f, 0x3e,
  0xae, 0x54, 0x06, 0xbe, 0xdf, 0x30, 0x03, 0xbe, 0x53, 0x2d, 0x0b, 0xbf,
  0xd0, 0xfe, 0x4d, 0x3e, 0x15, 0x88, 0x12, 0x3f, 0xb1, 0xde, 0x65, 0xbe,
  0x60, 0xe2, 0xc6, 0x3e, 0x89, 0x97, 0x8d, 0xbe, 0x47, 0xe6, 0x8c, 0xbe,
  0x60, 0xc8, 0x0c, 0x3e, 0x21, 0x0c, 0x9a, 0xbc, 0x3f, 0x72, 0xb3, 0x3e,
  0x2b, 0xf2, 0x95, 0x3e, 0xaf, 0xd2, 0xc9, 0x3e, 0xc0, 0x5f, 0x14, 0xbf,
  0x6a, 0x15, 0x37, 0xbd, 0xc2, 0x6b, 0x79, 0x3e, 0xa2, 0x6d, 0xbe, 0xbc,
  0x56, 0x76, 0x60, 0xbe, 0x68, 0x2b, 0xc9, 0xbe, 0x90, 0xe1, 0xe7, 0xbe,
  0xa0, 0xa3, 0xb8, 0x3e, 0x26, 0x05, 0xb8, 0x3c, 0xab, 0x51, 0xcd, 0xbd,
  0x91, 0x0f, 0x9d, 0x3b, 0xdc, 0x4a, 0x59, 0xbc, 0x5c, 0x4b, 0xd7, 0x3d,
  0xbb, 0xb8, 0x83, 0x3e, 0x68, 0xf3, 0x19, 0x3d, 0x27, 0xbe, 0x8d, 0xbe,
  0xaa, 0x31, 0xe2, 0xbe, 0x22, 0xab, 0x96, 0xbe, 0x3d, 0x99, 0xc1, 0x3e,
  0x0b, 0xcd, 0x0f, 0x3e, 0x4c, 0xeb, 0x98, 0x3e, 0xc6, 0x20, 0x74, 0x3e,
  0xe7, 0xb2, 0xc2, 0xbe, 0x1d, 0x81, 0x28, 0x3d, 0x6f, 0xaa, 0xc6, 0xbe,
  0xd9, 0x21, 0xb9, 0xbe, 0xf6, 0xb0, 0x86, 0xbd, 0x88, 0x0a, 0xb6, 0xbe,
  0xfc, 0xfa, 0x78, 0xbe, 0x51, 0xfa, 0xbc, 0x3e, 0x87, 0x58, 0x94, 0x3e,
  0xe1, 0x76, 0xb3, 0x3e, 0x5c, 0x4d, 0x25, 0xbe, 0x64, 0xb8, 0x70, 0xbe,
  0xcf, 0xda, 0xc0, 0x3e, 0x18, 0x0d, 0xf8, 0xbd, 0x55, 0x6d, 0x89, 0xbe,
  0x2d, 0x97, 0xd2, 0xbe, 0xc5, 0xab, 0xcd, 0x3e, 0xb5, 0xda, 0xf4, 0xbe,
  0x68, 0x9b, 0x8b, 0xbd, 0xa0, 0xfb, 0x69, 0x3d, 0xa8, 0x3c, 0x71, 0xbe,
  0x22, 0x2e, 0x10, 0x3e, 0x8a, 0xca, 0x27, 0x3e, 0xab, 0x2f, 0xdb, 0x3e,
  0xab, 0xd9, 0x81, 0x3e, 0xd6, 0x2b, 0x85, 0xbe, 0x7f, 0xad, 0x3b, 0xbf,
  0x07, 0x9b, 0xab, 0x3e, 0x0e, 0x2b, 0x44, 0x3e, 0x4a, 0x05, 0x97, 0x3c,
  0xb3, 0xc4, 0x9b, 0xbe, 0x7f, 0x92, 0x79, 0xbe, 0x21, 0x07, 0x80, 0xbf,
  0x67, 0x24, 0x57, 0x3e, 0xe5, 0xb0, 0xee, 0xbd, 0x94, 0xe0, 0x60, 0xbe,
  0x9f, 0x6d, 0x93, 0x3e, 0xfc, 0x05, 0x89, 0xbd, 0xb3, 0x53, 0x21, 0x3f,
  0x70, 0x25, 0x22, 0xbe, 0x54, 0x90, 0xc2, 0x3d, 0x92, 0x3d, 0xbd, 0xbe,
  0x3e, 0xfb, 0xc1, 0x3d, 0xbb, 0x01, 0x1e, 0x3d, 0x5d, 0x66, 0xad, 0x3e,
  0x64, 0x33, 0xed, 0xbc, 0xf2, 0xf8, 0x86, 0x3d, 0x01, 0xb6, 0xef, 0xbe,
  0x83, 0x38, 0x2e, 0x3b, 0x8b, 0x39, 0xa9, 0x3e, 0xaa, 0x9a, 0x56, 0x3d,
  0xe5, 0x7f, 0xa1, 0xbe, 0x7e, 0x34, 0xa1, 0x3f, 0xa2, 0x03, 0xb0, 0x3d,
  0xf6, 0x33, 0x6c, 0xbd, 0xf6, 0x61, 0x92, 0xbe, 0xee, 0x45, 0x16, 0x3e,
  0x9c, 0x59, 0xb7, 0x3d, 0x8b, 0x95, 0x62, 0xbf, 0x47, 0xda, 0x5e, 0x3e,
  0x62, 0x81, 0x2b, 0x3e, 0xed, 0xe3, 0x85, 0x3d, 0x18, 0x03, 0x64, 0xbf,
  0x80, 0xb9, 0xd5, 0x3e, 0x65, 0x9c, 0x43, 0xbe, 0x18, 0xea, 0x43, 0xbc,
  0xb6, 0x1e, 0x2d, 0x3e, 0x9c, 0xbd, 0xc1, 0x3e, 0x40, 0xcc, 0x1a, 0x3e,
  0x94, 0xe7, 0x10, 0x3c, 0x2e, 0xf2, 0x0a, 0x3f, 0x14, 0xe5, 0x8a, 0xbe,
  0x9c, 0xe9, 0xdc, 0xbe, 0xc7, 0x05, 0xcd, 0x3e, 0x3c, 0xd8, 0x3a, 0xbf,
  0x7e, 0x90, 0x9a, 0xbb, 0x6f, 0x47, 0xa8, 0x3e, 0x82, 0x3b, 0xff, 0x3d,
  0xf2, 0x8c, 0x1f, 0xbe, 0xc8, 0xa5, 0x9c, 0x3e, 0xd5, 0xe1, 0x22, 0xbf,
  0x73, 0x52, 0xce, 0xbe, 0x5a, 0xbe, 0x9b, 0x3e, 0xd4, 0xa3, 0x7f, 0xbd,
  0x39, 0x26, 0xf6, 0x3e, 0x44, 0x9d, 0x24, 0xbe, 0xdb, 0x7c, 0xa0, 0x3e,
  0xff, 0xa1, 0xa5, 0x3e, 0x90, 0x69, 0x40, 0x3d, 0x8d, 0x56, 0xc2, 0x3e,
  0xcd, 0x55, 0xa1, 0x3e, 0x14, 0x9c, 0xc8, 0xbe, 0xd4, 0x85, 0xd7, 0xbe,
  0x10, 0x2b, 0x8d, 0x3e, 0x30, 0x00, 0x2f, 0xbe, 0xc8, 0x32, 0x06, 0xbe,
  0x4a, 0x7a, 0x7d, 0xbe, 0x80, 0x66, 0x07, 0xbf, 0x5c, 0x2b, 0xbe, 0x3e,
  0x0e, 0x27, 0xc7, 0xbe, 0x23, 0x64, 0x0f, 0xbf, 0x10, 0x32, 0x3a, 0xbf,
  0xcd, 0x18, 0xed, 0x3d, 0x2e, 0x07, 0x2b, 0x3e, 0x54, 0xe7, 0x58, 0xbe,
  0x66, 0xff, 0xff, 0xff, 0x04, 0x00, 0x00, 0x00, 0x40, 0x00, 0x00, 0x00,
  0xf9, 0x94, 0x0c, 0xbd, 0x33, 0x39, 0xcf, 0xbc, 0x07, 0x9e, 0xca, 0x3d,
  0xc6, 0x8a, 0x06, 0xbf, 0xce, 0x78, 0x2f, 0xbd, 0x5f, 0x42, 0x19, 0x3d,
  0xca, 0x35, 0x6a, 0xbe, 0xbf, 0x3a, 0x2a, 0x3b, 0xcd, 0x93, 0x8c, 0xbe,
  0xda, 0x80, 0x50, 0xbd, 0xd2, 0xea, 0xa7, 0xbd, 0x28, 0x2b, 0x04, 0xbf,
  0x46, 0x27, 0x4d, 0x3d, 0xd3, 0xf3, 0xd4, 0xbe, 0xf9, 0x53, 0xfe, 0xbe,
  0xfa, 0x38, 0x11, 0xbd, 0xb2, 0xff, 0xff, 0xff, 0x04, 0x00, 0x00, 0x00,
  0x40, 0x00, 0x00, 0x00, 0xc6, 0x74, 0xe6, 0x3f, 0x17, 0x10, 0x8b, 0x3d,
  0x3f, 0x84, 0xae, 0x3e, 0xbf, 0x89, 0x0a, 0xbf, 0x86, 0x6c, 0xca, 0x3f,
  0x4f, 0xef, 0xbb, 0x3d, 0x72, 0x33, 0xae, 0xba, 0x97, 0xc3, 0xfe, 0x3e,
  0x32, 0xba, 0x13, 0x3a, 0x1d, 0x9b, 0xde, 0x3d, 0x61, 0xea, 0x26, 0xbe,
  0x55, 0xb1, 0x3a, 0xbe, 0x5a, 0x40, 0xcd, 0x3e, 0xce, 0x77, 0x9b, 0xbe,
  0xa2, 0x35, 0x4d, 0x3e, 0x20, 0xf5, 0x16, 0xbb, 0x00, 0x00, 0x06, 0x00,
  0x08, 0x00, 0x04, 0x00, 0x06, 0x00, 0x00, 0x00, 0x04, 0x00, 0x00, 0x00,
  0x04, 0x00, 0x00, 0x00, 0x90, 0x16, 0x14, 0x3e, 0xb8, 0xfa, 0xff, 0xff,
  0x0f, 0x00, 0x00, 0x00, 0x54, 0x4f, 0x43, 0x4f, 0x20, 0x43, 0x6f, 0x6e,
  0x76, 0x65, 0x72, 0x74, 0x65, 0x64, 0x2e, 0x00, 0x01, 0x00, 0x00, 0x00,
  0x10, 0x00, 0x00, 0x00, 0x0c, 0x00, 0x14, 0x00, 0x04, 0x00, 0x08, 0x00,
  0x0c, 0x00, 0x10, 0x00, 0x0c, 0x00, 0x00, 0x00, 0x28, 0x01, 0x00, 0x00,
  0x1c, 0x01, 0x00, 0x00, 0x10, 0x01, 0x00, 0x00, 0x04, 0x00, 0x00, 0x00,
  0x04, 0x00, 0x00, 0x00, 0xc8, 0x00, 0x00, 0x00, 0x80, 0x00, 0x00, 0x00,
  0x38, 0x00, 0x00, 0x00, 0x04, 0x00, 0x00, 0x00, 0x9a, 0xff, 0xff, 0xff,
  0x00, 0x00, 0x00, 0x08, 0x18, 0x00, 0x00, 0x00, 0x0c, 0x00, 0x00, 0x00,
  0x04, 0x00, 0x00, 0x00, 0x20, 0xfb, 0xff, 0xff, 0x01, 0x00, 0x00, 0x00,
  0x00, 0x00, 0x00, 0x00, 0x03, 0x00, 0x00, 0x00, 0x0a, 0x00, 0x00, 0x00,
  0x0b, 0x00, 0x00, 0x00, 0x0c, 0x00, 0x00, 0x00, 0xca, 0xff, 0xff, 0xff,
  0x00, 0x00, 0x00, 0x08, 0x1c, 0x00, 0x00, 0x00, 0x10, 0x00, 0x00, 0x00,
  0x04, 0x00, 0x00, 0x00, 0x76, 0xff, 0xff, 0xff, 0x00, 0x00, 0x00, 0x01,
  0x01, 0x00, 0x00, 0x00, 0x0a, 0x00, 0x00, 0x00, 0x03, 0x00, 0x00, 0x00,
  0x07, 0x00, 0x00, 0x00, 0x08, 0x00, 0x00, 0x00, 0x09, 0x00, 0x00, 0x00,
  0x00, 0x00, 0x0e, 0x00, 0x14, 0x00, 0x00, 0x00, 0x08, 0x00, 0x0c, 0x00,
  0x07, 0x00, 0x10, 0x00, 0x0e, 0x00, 0x00, 0x00, 0x00, 0x00, 0x00, 0x08,
  0x1c, 0x00, 0x00, 0x00, 0x10, 0x00, 0x00, 0x00, 0x04, 0x00, 0x00, 0x00,
  0xba, 0xff, 0xff, 0xff, 0x00, 0x00, 0x00, 0x01, 0x01, 0x00, 0x00, 0x00,
  0x07, 0x00, 0x00, 0x00, 0x03, 0x00, 0x00, 0x00, 0x04, 0x00, 0x00, 0x00,
  0x05, 0x00, 0x00, 0x00, 0x06, 0x00, 0x00, 0x00, 0x00, 0x00, 0x0e, 0x00,
  0x16, 0x00, 0x00, 0x00, 0x08, 0x00, 0x0c, 0x00, 0x07, 0x00, 0x10, 0x00,
  0x0e, 0x00, 0x00, 0x00, 0x00, 0x00, 0x00, 0x08, 0x24, 0x00, 0x00, 0x00,
  0x18, 0x00, 0x00, 0x00, 0x0c, 0x00, 0x00, 0x00, 0x00, 0x00, 0x06, 0x00,
  0x08, 0x00, 0x07, 0x00, 0x06, 0x00, 0x00, 0x00, 0x00, 0x00, 0x00, 0x01,
  0x01, 0x00, 0x00, 0x00, 0x04, 0x00, 0x00, 0x00, 0x03, 0x00, 0x00, 0x00,
  0x01, 0x00, 0x00, 0x00, 0x02, 0x00, 0x00, 0x00, 0x03, 0x00, 0x00, 0x00,
  0x01, 0x00, 0x00, 0x00, 0x00, 0x00, 0x00, 0x00, 0x01, 0x00, 0x00, 0x00,
  0x01, 0x00, 0x00, 0x00, 0x0d, 0x00, 0x00, 0x00, 0xd8, 0x03, 0x00, 0x00,
  0x70, 0x03, 0x00, 0x00, 0x10, 0x03, 0x00, 0x00, 0xc8, 0x02, 0x00, 0x00,
  0x84, 0x02, 0x00, 0x00, 0x24, 0x02, 0x00, 0x00, 0xdc, 0x01, 0x00, 0x00,
  0x98, 0x01, 0x00, 0x00, 0x38, 0x01, 0x00, 0x00, 0xf0, 0x00, 0x00, 0x00,
  0xac, 0x00, 0x00, 0x00, 0x4c, 0x00, 0x00, 0x00, 0x04, 0x00, 0x00, 0x00,
  0x6a, 0xfc, 0xff, 0xff, 0x38, 0x00, 0x00, 0x00, 0x01, 0x00, 0x00, 0x00,
  0x0c, 0x00, 0x00, 0x00, 0x04, 0x00, 0x00, 0x00, 0x5c, 0xfc, 0xff, 0xff,
  0x1e, 0x00, 0x00, 0x00, 0x73, 0x65, 0x71, 0x75, 0x65, 0x6e, 0x74, 0x69,
  0x61, 0x6c, 0x2f, 0x64, 0x65, 0x6e, 0x73, 0x65, 0x5f, 0x33, 0x2f, 0x4d,
  0x61, 0x74, 0x4d, 0x75, 0x6c, 0x5f, 0x62, 0x69, 0x61, 0x73, 0x00, 0x00,
  0x01, 0x00, 0x00, 0x00, 0x01, 0x00, 0x00, 0x00, 0xae, 0xfc, 0xff, 0xff,
  0x4c, 0x00, 0x00, 0x00, 0x02, 0x00, 0x00, 0x00, 0x0c, 0x00, 0x00, 0x00,
  0x04, 0x00, 0x00, 0x00, 0xa0, 0xfc, 0xff, 0xff, 0x32, 0x00, 0x00, 0x00,
  0x73, 0x65, 0x71, 0x75, 0x65, 0x6e, 0x74, 0x69, 0x61, 0x6c, 0x2f, 0x64,
  0x65, 0x6e, 0x73, 0x65, 0x5f, 0x33, 0x2f, 0x4d, 0x61, 0x74, 0x4d, 0x75,
  0x6c, 0x2f, 0x52, 0x65, 0x61, 0x64, 0x56, 0x61, 0x72, 0x69, 0x61, 0x62,
  0x6c, 0x65, 0x4f, 0x70, 0x2f, 0x74, 0x72, 0x61, 0x6e, 0x73, 0x70, 0x6f,
  0x73, 0x65, 0x00, 0x00, 0x02, 0x00, 0x00, 0x00, 0x01, 0x00, 0x00, 0x00,
  0x10, 0x00, 0x00, 0x00, 0x0a, 0xfd, 0xff, 0xff, 0x30, 0x00, 0x00, 0x00,
  0x0d, 0x00, 0x00, 0x00, 0x0c, 0x00, 0x00, 0x00, 0x04, 0x00, 0x00, 0x00,
  0xfc, 0xfc, 0xff, 0xff, 0x17, 0x00, 0x00, 0x00, 0x73, 0x65, 0x71, 0x75,
  0x65, 0x6e, 0x74, 0x69, 0x61, 0x6c, 0x2f, 0x64, 0x65, 0x6e, 0x73, 0x65,
  0x5f, 0x32, 0x2f, 0x52, 0x65, 0x6c, 0x75, 0x00, 0x02, 0x00, 0x00, 0x00,
  0x01, 0x00, 0x00, 0x00, 0x10, 0x00, 0x00, 0x00, 0x4a, 0xfd, 0xff, 0xff,
  0x38, 0x00, 0x00, 0x00, 0x03, 0x00, 0x00, 0x00, 0x0c, 0x00, 0x00, 0x00,
  0x04, 0x00, 0x00, 0x00, 0x3c, 0xfd, 0xff, 0xff, 0x1e, 0x00, 0x00, 0x00,
  0x73, 0x65, 0x71, 0x75, 0x65, 0x6e, 0x74, 0x69, 0x61, 0x6c, 0x2f, 0x64,
  0x65, 0x6e, 0x73, 0x65, 0x5f, 0x32, 0x2f, 0x4d, 0x61, 0x74, 0x4d, 0x75,
  0x6c, 0x5f, 0x62, 0x69, 0x61, 0x73, 0x00, 0x00, 0x01, 0x00, 0x00, 0x00,
  0x10, 0x00, 0x00, 0x00, 0x8e, 0xfd, 0xff, 0xff, 0x4c, 0x00, 0x00, 0x00,
  0x04, 0x00, 0x00, 0x00, 0x0c, 0x00, 0x00, 0x00, 0x04, 0x00, 0x00, 0x00,
  0x80, 0xfd, 0xff, 0xff, 0x32, 0x00, 0x00, 0x00, 0x73, 0x65, 0x71, 0x75,
  0x65, 0x6e, 0x74, 0x69, 0x61, 0x6c, 0x2f, 0x64, 0x65, 0x6e, 0x73, 0x65,
  0x5f, 0x32, 0x2f, 0x4d, 0x61, 0x74, 0x4d, 0x75, 0x6c, 0x2f, 0x52, 0x65,
  0x61, 0x64, 0x56, 0x61, 0x72, 0x69, 0x61, 0x62, 0x6c, 0x65, 0x4f, 0x70,
  0x2f, 0x74, 0x72, 0x61, 0x6e, 0x73, 0x70, 0x6f, 0x73, 0x65, 0x00, 0x00,
  0x02, 0x00, 0x00, 0x00, 0x10, 0x00, 0x00, 0x00, 0x10, 0x00, 0x00, 0x00,
  0xea, 0xfd, 0xff, 0xff, 0x30, 0x00, 0x00, 0x00, 0x0c, 0x00, 0x00, 0x00,
  0x0c, 0x00, 0x00, 0x00, 0x04, 0x00, 0x00, 0x00, 0xdc, 0xfd, 0xff, 0xff,
  0x17, 0x00, 0x00, 0x00, 0x73, 0x65, 0x71, 0x75, 0x65, 0x6e, 0x74, 0x69,
  0x61, 0x6c, 0x2f, 0x64, 0x65, 0x6e, 0x73, 0x65, 0x5f, 0x31, 0x2f, 0x52,
  0x65, 0x6c, 0x75, 0x00, 0x02, 0x00, 0x00, 0x00, 0x01, 0x00, 0x00, 0x00,
  0x10, 0x00, 0x00, 0x00, 0x2a, 0xfe, 0xff, 0xff, 0x38, 0x00, 0x00, 0x00,
  0x05, 0x00, 0x00, 0x00, 0x0c, 0x00, 0x00, 0x00, 0x04, 0x00, 0x00, 0x00,
  0x1c, 0xfe, 0xff, 0xff, 0x1e, 0x00, 0x00, 0x00, 0x73, 0x65, 0x71, 0x75,
  0x65, 0x6e, 0x74, 0x69, 0x61, 0x6c, 0x2f, 0x64, 0x65, 0x6e, 0x73, 0x65,
  0x5f, 0x31, 0x2f, 0x4d, 0x61, 0x74, 0x4d, 0x75, 0x6c, 0x5f, 0x62, 0x69,
  0x61, 0x73, 0x00, 0x00, 0x01, 0x00, 0x00, 0x00, 0x10, 0x00, 0x00, 0x00,
  0x6e, 0xfe, 0xff, 0xff, 0x4c, 0x00, 0x00, 0x00, 0x07, 0x00, 0x00, 0x00,
  0x0c, 0x00, 0x00, 0x00, 0x04, 0x00, 0x00, 0x00, 0x60, 0xfe, 0xff, 0xff,
  0x32, 0x00, 0x00, 0x00, 0x73, 0x65, 0x71, 0x75, 0x65, 0x6e, 0x74, 0x69,
  0x61, 0x6c, 0x2f, 0x64, 0x65, 0x6e, 0x73, 0x65, 0x5f, 0x31, 0x2f, 0x4d,
  0x61, 0x74, 0x4d, 0x75, 0x6c, 0x2f, 0x52, 0x65, 0x61, 0x64, 0x56, 0x61,
  0x72, 0x69, 0x61, 0x62, 0x6c, 0x65, 0x4f, 0x70, 0x2f, 0x74, 0x72, 0x61,
  0x6e, 0x73, 0x70, 0x6f, 0x73, 0x65, 0x00, 0x00, 0x02, 0x00, 0x00, 0x00,
  0x10, 0x00, 0x00, 0x00, 0x01, 0x00, 0x00, 0x00, 0xca, 0xfe, 0xff, 0xff,
  0x30, 0x00, 0x00, 0x00, 0x0b, 0x00, 0x00, 0x00, 0x0c, 0x00, 0x00, 0x00,
  0x04, 0x00, 0x00, 0x00, 0xbc, 0xfe, 0xff, 0xff, 0x15, 0x00, 0x00, 0x00,
  0x73, 0x65, 0x71, 0x75, 0x65, 0x6e, 0x74, 0x69, 0x61, 0x6c, 0x2f, 0x64,
  0x65, 0x6e, 0x73, 0x65, 0x2f, 0x52, 0x65, 0x6c, 0x75, 0x00, 0x00, 0x00,
  0x02, 0x00, 0x00, 0x00, 0x01, 0x00, 0x00, 0x00, 0x01, 0x00, 0x00, 0x00,
  0x0a, 0xff, 0xff, 0xff, 0x38, 0x00, 0x00, 0x00, 0x06, 0x00, 0x00, 0x00,
  0x0c, 0x00, 0x00, 0x00, 0x04, 0x00, 0x00, 0x00, 0xfc, 0xfe, 0xff, 0xff,
  0x1c, 0x00, 0x00, 0x00, 0x73, 0x65, 0x71, 0x75, 0x65, 0x6e, 0x74, 0x69,
  0x61, 0x6c, 0x2f, 0x64, 0x65, 0x6e, 0x73, 0x65, 0x2f, 0x4d, 0x61, 0x74,
  0x4d, 0x75, 0x6c, 0x5f, 0x62, 0x69, 0x61, 0x73, 0x00, 0x00, 0x00, 0x00,
  0x01, 0x00, 0x00, 0x00, 0x01, 0x00, 0x00, 0x00, 0x4e, 0xff, 0xff, 0xff,
  0x4c, 0x00, 0x00, 0x00, 0x08, 0x00, 0x00, 0x00, 0x0c, 0x00, 0x00, 0x00,
  0x04, 0x00, 0x00, 0x00, 0x40, 0xff, 0xff, 0xff, 0x30, 0x00, 0x00, 0x00,
  0x73, 0x65, 0x71, 0x75, 0x65, 0x6e, 0x74, 0x69, 0x61, 0x6c, 0x2f, 0x64,
  0x65, 0x6e, 0x73, 0x65, 0x2f, 0x4d, 0x61, 0x74, 0x4d, 0x75, 0x6c, 0x2f,
  0x52, 0x65, 0x61, 0x64, 0x56, 0x61, 0x72, 0x69, 0x61, 0x62, 0x6c, 0x65,
  0x4f, 0x70, 0x2f, 0x74, 0x72, 0x61, 0x6e, 0x73, 0x70, 0x6f, 0x73, 0x65,
  0x00, 0x00, 0x00, 0x00, 0x02, 0x00, 0x00, 0x00, 0x01, 0x00, 0x00, 0x00,
  0x03, 0x00, 0x00, 0x00, 0xaa, 0xff, 0xff, 0xff, 0x44, 0x00, 0x00, 0x00,
  0x0a, 0x00, 0x00, 0x00, 0x2c, 0x00, 0x00, 0x00, 0x0c, 0x00, 0x00, 0x00,
  0x08, 0x00, 0x0c, 0x00, 0x04, 0x00, 0x08, 0x00, 0x08, 0x00, 0x00, 0x00,
  0x10, 0x00, 0x00, 0x00, 0x04, 0x00, 0x00, 0x00, 0x01, 0x00, 0x00, 0x00,
  0x00, 0x00, 0x7f, 0x43, 0x01, 0x00, 0x00, 0x00, 0x00, 0x00, 0x00, 0x00,
  0x0b, 0x00, 0x00, 0x00, 0x64, 0x65, 0x6e, 0x73, 0x65, 0x5f, 0x69, 0x6e,
  0x70, 0x75, 0x74, 0x00, 0x02, 0x00, 0x00, 0x00, 0x01, 0x00, 0x00, 0x00,
  0x03, 0x00, 0x00, 0x00, 0x00, 0x00, 0x0e, 0x00, 0x14, 0x00, 0x04, 0x00,
  0x00, 0x00, 0x08, 0x00, 0x0c, 0x00, 0x10, 0x00, 0x0e, 0x00, 0x00, 0x00,
  0x28, 0x00, 0x00, 0x00, 0x09, 0x00, 0x00, 0x00, 0x10, 0x00, 0x00, 0x00,
  0x08, 0x00, 0x00, 0x00, 0x04, 0x00, 0x04, 0x00, 0x04, 0x00, 0x00, 0x00,
  0x08, 0x00, 0x00, 0x00, 0x49, 0x64, 0x65, 0x6e, 0x74, 0x69, 0x74, 0x79,
  0x00, 0x00, 0x00, 0x00, 0x02, 0x00, 0x00, 0x00, 0x01, 0x00, 0x00, 0x00,
  0x01, 0x00, 0x00, 0x00, 0x01, 0x00, 0x00, 0x00, 0x10, 0x00, 0x00, 0x00,
  0x00, 0x00, 0x0a, 0x00, 0x0c, 0x00, 0x07, 0x00, 0x00, 0x00, 0x08, 0x00,
  0x0a, 0x00, 0x00, 0x00, 0x00, 0x00, 0x00, 0x09, 0x03, 0x00, 0x00, 0x00};
const int g_sine_model_data_len = 2952;
